3cf3 197 161 19
3cf3 379 52 17
3cf3 470 279 17
3cf3 285 68 19
3cf3 220 308 20
3cf3 222 359 21
3cf3 193 280 20
3cf3 111 403 22
3cf3 125 418 21
3cf3 288 344 20
3cf3 47 268 22
3cf3 38 208 22
3cf3 141 317 24
3cf3 380 52 23
3cf3 432 270 23
3cf3 94 281 23
3cf3 469 279 23
3cf3 182 359 27
3cf3 362 257 25
3cf3 247 46 29
3cf3 195 68 27
3cf3 120 121 28
3cf3 336 111 28
3cf3 288 345 26
3cf3 243 453 29
3cf3 39 207 28
3cf3 363 257 30
3cf3 334 38 32
3cf3 441 489 33
3cf3 90 309 35
3cf3 188 374 34
3cf3 84 484 35
3cf3 452 254 38
3cf3 314 411 37
3cf3 89 344 36
3cf3 89 448 36
3cf3 288 169 37
3cf3 160 420 39
3cf3 188 374 39
3cf3 195 28 44
3cf3 336 66 41
3cf3 168 114 41
3cf3 90 345 40
3cf3 268 432 42
3cf3 340 186 45
3cf3 288 169 42
3cf3 79 183 45
3cf3 313 135 46
3cf3 180 252 47
3cf3 469 295 49
3cf3 323 56 49
3cf3 227 60 48
3cf3 306 425 49
3cf3 301 445 50
3cf3 236 448 49
3cf3 133 257 54
3cf3 133 467 52
3cf3 212 220 54
3cf3 219 246 52
3cf3 359 382 53
3cf3 421 422 54
3cf3 222 176 54
3cf3 111 321 55
3cf3 197 43 60
3cf3 156 56 56
3cf3 123 401 57
3cf3 491 435 61
3cf3 236 475 62
3cf3 408 176 60
3cf3 122 216 61
3cf3 416 299 62
3cf3 187 429 62
3cf3 304 59 59
3cf3 283 163 65
3cf3 468 327 63
3cf3 303 59 63
3cf3 173 58 66
3cf3 371 67 68
3cf3 232 176 68
3cf3 167 462 66
3cf3 178 96 69
3cf3 481 70 70
3cf3 320 73 70
3cf3 171 254 67
3cf3 217 159 75
3cf3 51 261 72
3cf3 387 340 71
3cf3 389 409 73
3cf3 256 465 72
3cf3 172 57 70
3cf3 227 446 72
3cf3 166 462 71
3cf3 69 480 75
3cf3 462 470 73
3cf3 233 401 73
3cf3 171 322 78
3cf3 440 430 79
3cf3 332 370 79
3cf3 287 88 80
3cf3 253 430 82
3cf3 136 318 79
3cf3 342 400 85
3cf3 397 473 82
3cf3 263 398 85
3cf3 201 109 84
3cf3 226 347 85
3cf3 171 346 88
3cf3 135 62 89
3cf3 372 191 88
3cf3 344 198 88
3cf3 51 468 90
3cf3 382 68 89
3cf3 67 309 89
3cf3 397 473 87
3cf3 180 186 92
3cf3 408 183 91
3cf3 227 457 90
3cf3 35 472 94
3cf3 417 128 97
3cf3 442 52 98
3cf3 487 103 97
3cf3 406 338 98
3cf3 225 426 97
3cf3 120 256 99
3cf3 111 449 99
3cf3 423 57 102
3cf3 21 361 100
3cf3 35 472 99
3cf3 242 113 104
3cf3 160 139 105
3cf3 183 86 104
3cf3 300 246 103
3cf3 321 95 108
3cf3 454 279 106
3cf3 98 203 108
3cf3 177 474 111
3cf3 331 50 111
3cf3 181 86 108
3cf3 488 85 111
3cf3 136 477 111
3cf3 138 275 110
3cf3 208 480 113
3cf3 259 213 115
3cf3 239 39 114
3cf3 467 341 113
3cf3 318 489 116
3cf3 139 275 115
3cf3 53 402 118
3cf3 181 125 119
3cf3 308 148 117
3cf3 83 148 118
3cf3 479 267 120
3cf3 464 400 119
3cf3 159 77 122
3cf3 218 211 123
3cf3 78 20 122
3cf3 392 175 123
3cf3 436 109 122
3cf3 83 148 124
3cf3 464 401 124
3cf3 23 229 128
3cf3 483 355 127
3cf3 317 363 127
3cf3 409 25 130
3cf3 159 77 127
3cf3 155 170 128
3cf3 77 276 131
3cf3 72 489 128
3cf3 208 237 130
3cf3 29 390 132
3cf3 196 44 135
3cf3 62 293 135
3cf3 155 171 133
3cf3 384 107 136
3cf3 282 167 137
3cf3 210 236 134
3cf3 165 354 137
3cf3 267 377 135
3cf3 166 413 137
3cf3 270 69 136
3cf3 79 65 139
3cf3 176 191 140
3cf3 476 349 142
3cf3 46 375 140
3cf3 137 475 142
3cf3 271 426 145
3cf3 489 468 142
3cf3 132 31 145
3cf3 78 66 143
3cf3 79 469 143
3cf3 384 60 144
3cf3 62 102 148
3cf3 25 183 146
3cf3 61 387 148
3cf3 466 20 147
3cf3 391 26 148
3cf3 491 468 147
3cf3 448 379 149
3cf3 381 221 152
3cf3 102 24 152
3cf3 104 265 150
3cf3 457 415 150
3cf3 249 125 153
3cf3 246 33 151
3cf3 367 93 152
3cf3 349 322 152
3cf3 73 189 156
3cf3 289 209 154
3cf3 228 367 154
3cf3 406 162 158
3cf3 438 37 155
3cf3 457 415 155
3cf3 113 494 156
3cf3 226 99 159
3cf3 363 155 158
3cf3 396 72 161
3cf3 367 94 157
3cf3 349 321 156
3cf3 341 475 159
3cf3 335 360 162
3cf3 42 239 162
3cf3 61 238 161
3cf3 115 494 161
3cf3 96 355 163
3cf3 66 398 166
3cf3 28 262 168
3cf3 190 289 165
3cf3 20 220 168
3cf3 110 413 166
3cf3 60 237 166
3cf3 238 260 168
3cf3 278 352 170
3cf3 418 392 166
3cf3 82 484 167
3cf3 96 355 168
3cf3 353 264 171
3cf3 214 299 168
3cf3 180 310 170
3cf3 487 440 171
3cf3 116 357 170
3cf3 161 242 174
3cf3 190 290 170
3cf3 418 391 172
3cf3 234 475 172
3cf3 69 71 173
3cf3 349 424 172
3cf3 100 478 172
3cf3 82 484 172
3cf3 182 62 175
3cf3 19 291 177
3cf3 361 316 175
3cf3 338 82 177
3cf3 127 485 178
3cf3 127 93 176
3cf3 182 308 175
3cf3 21 309 179
3cf3 489 442 175
3cf3 429 23 179
3cf3 161 85 178
3cf3 373 162 180
3cf3 61 446 178
3cf3 406 110 179
1s3x 110 345 7
1s3x 172 97 10
1s3x 332 145 8
1s3x 321 224 11
1s3x 460 75 12
1s3x 240 15 11
1s3x 124 60 11
1s3x 88 295 11
1s3x 364 444 11
1s3x 73 20 12
1s3x 202 192 12
1s3x 440 32 14
1s3x 481 31 14
1s3x 136 96 14
1s3x 474 140 14
1s3x 127 222 15
1s3x 43 451 15
1s3x 283 17 16
1s3x 322 484 16
1s3x 228 136 17
1s3x 283 324 18
1s3x 358 170 18
1s3x 158 249 20
1s3x 386 313 18
1s3x 322 92 21
1s3x 79 71 23
1s3x 446 140 24
1s3x 418 374 26
1s3x 96 183 26
1s3x 95 487 28
1s3x 19 152 28
1s3x 104 84 28
1s3x 162 454 28
1s3x 363 24 31
1s3x 64 304 30
1s3x 250 416 29
1s3x 486 62 31
1s3x 465 328 33
1s3x 304 286 32
1s3x 64 304 33
1s3x 119 402 33
1s3x 119 428 33
1s3x 37 27 35
1s3x 138 263 34
1s3x 484 64 36
1s3x 160 327 37
1s3x 432 50 38
1s3x 90 266 38
1s3x 452 430 38
1s3x 187 62 40
1s3x 226 86 40
1s3x 431 79 40
1s3x 489 303 42
1s3x 90 265 42
1s3x 200 168 44
1s3x 18 404 44
1s3x 366 86 45
1s3x 140 95 47
1s3x 340 16 49
1s3x 412 26 50
1s3x 234 74 50
1s3x 434 268 50
1s3x 176 162 51
1s3x 248 34 53
1s3x 485 51 52
1s3x 362 170 53
1s3x 10 397 53
1s3x 473 415 54
1s3x 332 248 57
1s3x 138 121 57
1s3x 480 13 59
1s3x 429 230 57
1s3x 364 18 59
1s3x 316 41 59
1s3x 343 371 59
1s3x 89 389 58
1s3x 113 185 60
1s3x 412 395 62
1s3x 290 16 63
1s3x 156 70 62
1s3x 156 480 61
1s3x 428 174 63
1s3x 87 52 65
1s3x 95 189 65
1s3x 104 210 65
1s3x 42 428 67
1s3x 42 159 68
1s3x 458 241 68
1s3x 290 352 68
1s3x 470 400 69
1s3x 328 22 69
1s3x 348 88 68
1s3x 17 96 69
1s3x 399 358 69
1s3x 484 24 70
1s3x 186 396 70
1s3x 51 408 70
1s3x 110 58 71
1s3x 470 234 71
1s3x 418 209 72
1s3x 279 106 73
1s3x 460 242 72
1s3x 93 251 72
1s3x 394 486 73
1s3x 170 46 74
1s3x 381 212 75
1s3x 500 226 76
1s3x 22 228 74
1s3x 212 398 75
1s3x 26 154 76
1s3x 234 244 76
1s3x 40 98 76
1s3x 193 300 77
1s3x 25 229 78
1s3x 292 354 79
1s3x 367 47 81
1s3x 354 100 79
1s3x 419 158 80
1s3x 32 80 82
1s3x 306 256 81
1s3x 96 454 82
1s3x 168 236 82
1s3x 399 305 82
1s3x 79 119 83
1s3x 440 350 85
1s3x 136 25 86
1s3x 80 119 87
1s3x 490 162 86
1s3x 184 58 88
1s3x 489 384 87
1s3x 232 364 89
1s3x 53 104 90
1s3x 490 160 90
1s3x 376 328 90
1s3x 134 457 89
1s3x 22 321 90
1s3x 161 500 92
1s3x 315 41 94
1s3x 450 82 94
1s3x 364 93 96
1s3x 326 360 96
1s3x 412 480 95
1s3x 108 175 98
1s3x 91 325 99
1s3x 476 434 98
1s3x 219 497 98
1s3x 479 90 98
1s3x 154 264 100
1s3x 64 30 100
1s3x 250 74 100
1s3x 440 84 103
1s3x 154 344 100
1s3x 375 66 102
1s3x 212 167 103
1s3x 16 38 104
1s3x 472 308 105
1s3x 326 274 105
1s3x 132 288 105
1s3x 83 492 105
1s3x 362 41 107
1s3x 232 68 108
1s3x 377 174 109
1s3x 324 226 108
1s3x 286 208 108
1s3x 363 488 108
1s3x 471 502 110
1s3x 200 400 110
1s3x 319 462 114
1s3x 91 49 113
1s3x 232 68 112
1s3x 495 326 112
1s3x 371 471 113
1s3x 264 40 115
1s3x 295 53 116
1s3x 42 375 115
1s3x 397 402 115
1s3x 134 340 118
1s3x 376 280 119
1s3x 91 421 122
1s3x 22 322 121
1s3x 380 340 120
1s3x 251 369 122
1s3x 390 250 122
1s3x 103 80 123
1s3x 192 426 122
1s3x 174 72 124
1s3x 468 175 124
1s3x 455 184 124
1s3x 72 308 125
1s3x 232 363 126
1s3x 65 232 125
1s3x 397 394 126
1s3x 334 234 128
1s3x 400 87 131
1s3x 364 148 130
1s3x 88 243 129
1s3x 278 194 130
1s3x 92 111 131
1s3x 378 286 132
1s3x 467 240 133
1s3x 338 48 133
1s3x 365 14 136
1s3x 66 125 135
1s3x 96 196 134
1s3x 352 58 136
1s3x 305 325 135
1s3x 230 350 136
1s3x 96 22 136
1s3x 500 236 139
1s3x 136 348 138
1s3x 39 252 139
1s3x 468 178 140
1s3x 346 388 142
1s3x 120 25 143
1s3x 344 92 142
1s3x 326 375 142
1s3x 347 286 142
1s3x 88 19 144
1s3x 219 390 144
1s3x 280 347 147
1s3x 20 402 146
1s3x 112 403 147
1s3x 458 234 149
1s3x 13 456 150
1s3x 328 225 151
1s3x 418 423 153
1s3x 12 458 152
1s3x 38 334 153
1s3x 486 498 153
1s3x 410 99 154
1s3x 39 58 156
1s3x 361 16 157
1s3x 39 115 156
1s3x 384 39 157
1s3x 252 55 157
1s3x 145 471 158
1s3x 34 476 161
1s3x 34 47 163
1s3x 482 283 163
1s3x 420 130 164
1s3x 423 284 164
1s3x 28 425 165
1s3x 94 27 166
1s3x 211 208 166
1s3x 480 214 165
1s3x 336 93 167
1s3x 39 294 167
1s3x 241 461 167
1s3x 367 179 169
1s3x 135 382 170
1s3x 328 276 169
1s3x 55 216 173
1s3x 149 255 171
1s3x 130 275 171
1s3x 480 56 172
1s3x 490 304 171
1s3x 11 376 173
1s3x 282 299 174
1s3x 393 66 176
1s3x 124 310 174
1s3x 254 73 177
1s3x 267 217 177
1s3x 473 395 178
1s3x 396 255 179
1s3x 144 179 180
1s3x 369 394 181
1s3x 438 306 183
1s3x 471 24 182
1s3x 318 130 182
1s3x 233 75 185
1s3x 239 392 184
1s3x 368 241 185
1s3x 118 467 185
1s3x 304 17 187
1s3x 349 76 189
1s3x 480 191 186
1s3x 81 436 187
1s3x 122 440 186
1s3x 200 386 188
1s3x 217 55 190
1s3x 80 96 189
1s3x 136 400 188
1u6g 185 294 15
1u6g 190 184 16
1u6g 80 266 17
1u6g 309 18 18
1u6g 74 392 20
1u6g 183 410 20
1u6g 229 43 20
1u6g 269 151 18
1u6g 67 57 22
1u6g 113 63 22
1u6g 375 214 22
1u6g 32 342 22
1u6g 211 331 23
1u6g 143 410 23
1u6g 396 330 24
1u6g 376 78 27
1u6g 209 91 25
1u6g 278 256 26
1u6g 247 98 27
1u6g 368 196 26
1u6g 158 395 28
1u6g 460 182 31
1u6g 456 212 29
1u6g 379 234 30
1u6g 409 269 32
1u6g 98 46 31
1u6g 92 331 31
1u6g 348 468 34
1u6g 136 59 33
1u6g 125 224 34
1u6g 34 170 37
1u6g 41 256 39
1u6g 400 89 39
1u6g 416 18 41
1u6g 327 358 42
1u6g 122 200 42
1u6g 246 406 42
1u6g 218 204 44
1u6g 497 229 44
1u6g 22 58 46
1u6g 239 98 44
1u6g 400 229 47
1u6g 25 359 45
1u6g 390 153 47
1u6g 325 419 48
1u6g 169 35 50
1u6g 21 57 50
1u6g 305 268 51
1u6g 187 300 50
1u6g 442 483 49
1u6g 152 278 53
1u6g 286 295 51
1u6g 21 414 53
1u6g 184 69 54
1u6g 482 83 54
1u6g 361 494 56
1u6g 124 151 55
1u6g 404 331 55
1u6g 333 495 57
1u6g 305 424 56
1u6g 32 31 58
1u6g 34 170 57
1u6g 456 254 58
1u6g 94 332 58
1u6g 263 452 58
1u6g 242 140 59
1u6g 317 153 61
1u6g 244 373 59
1u6g 99 473 59
1u6g 31 225 61
1u6g 28 254 64
1u6g 88 364 63
1u6g 372 245 63
1u6g 114 38 65
1u6g 103 172 65
1u6g 411 451 65
1u6g 293 131 68
1u6g 368 147 68
1u6g 271 406 67
1u6g 415 279 71
1u6g 338 292 69
1u6g 184 340 71
1u6g 100 468 70
1u6g 401 156 72
1u6g 399 21 73
1u6g 174 306 73
1u6g 490 480 73
1u6g 248 165 75
1u6g 352 418 74
1u6g 341 31 78
1u6g 131 202 79
1u6g 118 90 80
1u6g 58 228 79
1u6g 361 383 82
1u6g 372 95 82
1u6g 25 486 83
1u6g 90 281 87
1u6g 336 326 86
1u6g 294 417 85
1u6g 188 36 88
1u6g 148 37 87
1u6g 447 69 86
1u6g 160 179 86
1u6g 205 284 86
1u6g 200 195 88
1u6g 484 403 88
1u6g 451 415 91
1u6g 104 470 90
1u6g 101 146 92
1u6g 192 336 92
1u6g 42 246 92
1u6g 228 307 95
1u6g 124 484 95
1u6g 165 286 97
1u6g 118 84 99
1u6g 409 74 98
1u6g 195 347 97
1u6g 104 324 102
1u6g 154 398 98
1u6g 145 468 100
1u6g 183 30 100
1u6g 424 230 104
1u6g 298 464 104
1u6g 20 229 105
1u6g 415 358 107
1u6g 51 496 108
1u6g 35 303 107
1u6g 385 451 108
1u6g 144 184 110
1u6g 480 472 108
1u6g 485 44 110
1u6g 156 122 109
1u6g 407 300 110
1u6g 380 197 114
1u6g 67 39 116
1u6g 274 275 115
1u6g 409 348 116
1u6g 198 136 116
1u6g 275 166 118
1u6g 371 251 120
1u6g 341 160 122
1u6g 132 362 124
1u6g 179 143 126
1u6g 64 328 125
1u6g 332 441 124
1u6g 456 141 126
1u6g 396 460 126
1u6g 253 188 126
1u6g 125 244 126
1u6g 100 260 129
1u6g 61 16 128
1u6g 245 420 127
1u6g 227 94 132
1u6g 479 122 131
1u6g 428 494 131
1u6g 439 294 134
1u6g 32 492 134
1u6g 413 179 135
1u6g 484 290 135
1u6g 425 493 135
1u6g 108 250 138
1u6g 327 330 137
1u6g 137 131 139
1u6g 199 328 141
1u6g 339 353 141
1u6g 62 320 141
1u6g 236 154 142
1u6g 223 66 145
1u6g 143 237 145
1u6g 220 438 145
1u6g 362 476 146
1u6g 71 156 147
1u6g 245 199 147
1u6g 120 332 148
1u6g 433 390 151
1u6g 230 220 148
1u6g 393 368 150
1u6g 249 375 149
1u6g 98 487 148
1u6g 353 459 151
1u6g 265 107 155
1u6g 297 195 158
1u6g 323 477 156
1u6g 473 438 158
1u6g 289 22 159
1u6g 57 39 162
1u6g 296 262 160
1u6g 70 332 159
1u6g 213 338 159
1u6g 169 305 160
1u6g 242 277 164
1u6g 411 57 164
1u6g 196 444 164
1u6g 197 77 167
1u6g 201 420 167
1u6g 100 174 165
1u6g 83 467 167
1u6g 368 67 170
1u6g 301 73 168
1u6g 453 125 169
1u6g 323 141 170
1u6g 372 370 168
1u6g 294 130 168
1u6g 362 94 172
1u6g 376 371 172
1u6g 102 297 174
1u6g 288 284 176
1u6g 75 38 178
1u6g 336 352 175
1u6g 133 241 180
1u6g 41 462 179
1u6g 286 243 180
1u6g 60 277 179
1u6g 84 86 181
1u6g 300 167 181
1u6g 95 255 182
1u6g 306 361 184
1u6g 136 242 184
4cr2 323 255 26
4cr2 375 284 29
4cr2 365 109 33
4cr2 398 470 31
4cr2 43 480 32
4cr2 437 33 32
4cr2 453 161 32
4cr2 308 241 34
4cr2 410 407 32
4cr2 230 176 32
4cr2 241 233 34
4cr2 360 161 37
4cr2 59 367 36
4cr2 330 454 37
4cr2 339 348 34
4cr2 328 255 34
4cr2 279 307 37
4cr2 181 217 41
4cr2 237 363 40
4cr2 140 165 40
4cr2 386 209 40
4cr2 392 255 40
4cr2 167 269 40
4cr2 448 450 42
4cr2 459 368 43
4cr2 247 167 46
4cr2 335 482 44
4cr2 366 257 45
4cr2 340 345 43
4cr2 290 48 46
4cr2 395 52 45
4cr2 401 431 46
4cr2 224 383 50
4cr2 104 394 50
4cr2 268 470 47
4cr2 354 36 49
4cr2 244 278 51
4cr2 328 274 52
4cr2 182 349 51
4cr2 337 392 49
4cr2 213 156 53
4cr2 419 480 51
4cr2 265 207 54
4cr2 171 234 52
4cr2 143 235 53
4cr2 445 336 52
4cr2 472 232 52
4cr2 66 414 56
4cr2 457 44 59
4cr2 316 309 56
4cr2 52 60 60
4cr2 387 186 55
4cr2 340 396 55
4cr2 350 32 58
4cr2 89 104 62
4cr2 197 195 63
4cr2 157 206 63
4cr2 409 37 62
4cr2 309 398 60
4cr2 138 96 64
4cr2 318 243 62
4cr2 378 369 62
4cr2 469 181 62
4cr2 301 280 66
4cr2 234 354 65
4cr2 148 430 63
4cr2 327 346 64
4cr2 306 441 68
4cr2 283 257 68
4cr2 314 117 72
4cr2 344 111 70
4cr2 227 204 70
4cr2 111 251 71
4cr2 47 352 71
4cr2 110 380 71
4cr2 343 457 69
4cr2 304 395 67
4cr2 55 173 74
4cr2 232 326 74
4cr2 174 438 73
4cr2 383 32 73
4cr2 425 55 71
4cr2 308 217 74
4cr2 197 324 73
4cr2 110 126 76
4cr2 465 185 71
4cr2 185 482 74
4cr2 153 131 78
4cr2 127 439 74
4cr2 415 442 77
4cr2 312 33 77
4cr2 130 175 79
4cr2 370 436 77
4cr2 232 137 78
4cr2 138 357 81
4cr2 208 464 80
4cr2 365 132 82
4cr2 288 176 83
4cr2 435 242 84
4cr2 357 245 84
4cr2 428 278 86
4cr2 440 393 83
4cr2 147 84 87
4cr2 483 283 87
4cr2 231 139 86
4cr2 48 439 86
4cr2 228 68 91
4cr2 342 98 93
4cr2 303 333 92
4cr2 370 168 90
4cr2 359 279 90
4cr2 305 373 91
4cr2 156 159 94
4cr2 419 362 90
4cr2 62 275 95
4cr2 401 44 94
4cr2 428 150 94
4cr2 41 246 98
4cr2 186 315 97
4cr2 68 361 96
4cr2 281 115 99
4cr2 249 327 101
4cr2 301 284 99
4cr2 50 224 100
4cr2 244 256 104
4cr2 35 141 103
4cr2 33 196 106
4cr2 41 106 107
4cr2 279 158 104
4cr2 185 383 107
4cr2 324 180 107
4cr2 257 381 106
4cr2 128 386 105
4cr2 199 59 109
4cr2 423 176 110
4cr2 158 411 108
4cr2 413 412 105
4cr2 449 163 109
4cr2 261 477 109
4cr2 168 224 111
4cr2 266 311 114
4cr2 317 133 113
4cr2 209 445 111
4cr2 93 166 114
4cr2 214 267 114
4cr2 250 353 114
4cr2 276 153 111
4cr2 82 382 116
4cr2 31 144 112
4cr2 331 199 117
4cr2 402 322 113
4cr2 261 379 115
4cr2 296 115 118
4cr2 358 128 120
4cr2 292 35 121
4cr2 382 80 122
4cr2 434 391 119
4cr2 418 77 120
4cr2 96 303 119
4cr2 354 93 124
4cr2 451 85 127
4cr2 362 234 124
4cr2 434 366 125
4cr2 275 470 125
4cr2 121 292 127
4cr2 414 131 129
4cr2 132 219 129
4cr2 213 300 129
4cr2 323 397 129
4cr2 105 422 130
4cr2 408 223 127
4cr2 93 301 128
4cr2 306 95 132
4cr2 351 115 134
4cr2 122 189 129
4cr2 33 467 131
4cr2 432 195 135
4cr2 445 345 134
4cr2 408 372 132
4cr2 106 56 137
4cr2 320 153 133
4cr2 469 75 136
4cr2 418 400 135
4cr2 441 224 138
4cr2 395 397 136
4cr2 246 321 144
4cr2 92 349 141
4cr2 128 309 146
4cr2 103 386 142
4cr2 31 421 138
4cr2 163 380 141
4cr2 108 155 145
4cr2 172 103 143
4cr2 465 269 146
4cr2 303 39 144
4cr2 423 114 149
4cr2 238 294 147
4cr2 34 421 145
4cr2 431 465 147
4cr2 338 74 152
4cr2 77 286 151
4cr2 399 293 151
4cr2 362 51 151
4cr2 302 139 153
4cr2 34 87 151
4cr2 102 129 153
4cr2 220 137 154
4cr2 266 357 155
4cr2 239 393 155
4cr2 215 416 152
4cr2 83 324 155
4cr2 149 132 156
4cr2 176 248 156
4cr2 385 342 155
4cr2 303 288 157
4cr2 311 317 159
4cr2 447 69 159
4cr2 463 246 158
4cr2 427 462 156
4cr2 291 404 159
4cr2 244 354 160
4cr2 449 302 162
4cr2 115 437 158
4cr2 363 204 165
4cr2 133 413 164
4cr2 241 420 161
4cr2 281 103 165
4cr2 171 199 163
4cr2 200 361 166
4cr2 214 167 164
4cr2 268 391 167
4cr2 160 417 166
4cr2 472 349 165
4cr2 133 195 169
4cr2 157 476 168
4cr2 390 221 171
4cr2 371 423 169
4cr2 409 308 171
4cr2 287 402 168
1qvr 23 394 21
1qvr 373 352 22
1qvr 239 434 25
1qvr 140 144 24
1qvr 165 292 25
1qvr 299 168 24
1qvr 310 191 25
1qvr 256 306 26
1qvr 196 425 22
1qvr 80 111 28
1qvr 308 114 27
1qvr 325 168 30
1qvr 67 228 29
1qvr 140 295 33
1qvr 225 44 33
1qvr 220 441 34
1qvr 159 186 35
1qvr 317 224 32
1qvr 34 435 34
1qvr 23 71 35
1qvr 403 183 33
1qvr 241 319 37
1qvr 426 323 37
1qvr 361 486 38
1qvr 245 195 39
1qvr 107 281 38
1qvr 75 50 39
1qvr 459 314 39
1qvr 470 408 37
1qvr 252 344 39
1qvr 134 396 41
1qvr 455 126 45
1qvr 427 384 41
1qvr 219 460 43
1qvr 62 299 45
1qvr 360 56 47
1qvr 471 406 42
1qvr 249 342 45
1qvr 299 114 46
1qvr 409 71 48
1qvr 196 129 51
1qvr 133 325 51
1qvr 312 85 52
1qvr 68 213 50
1qvr 267 27 49
1qvr 155 166 51
1qvr 69 375 53
1qvr 213 289 51
1qvr 203 479 53
1qvr 488 252 56
1qvr 95 269 58
1qvr 75 139 54
1qvr 150 149 54
1qvr 166 306 58
1qvr 233 431 58
1qvr 437 145 58
1qvr 66 210 55
1qvr 358 134 58
1qvr 28 84 59
1qvr 77 137 60
1qvr 152 148 61
1qvr 458 149 64
1qvr 232 116 64
1qvr 165 271 66
1qvr 264 129 64
1qvr 349 352 65
1qvr 378 394 64
1qvr 22 467 69
1qvr 28 383 68
1qvr 270 424 67
1qvr 451 222 68
1qvr 288 483 68
1qvr 103 74 72
1qvr 117 231 75
1qvr 176 361 74
1qvr 174 171 78
1qvr 450 34 78
1qvr 255 56 76
1qvr 186 76 77
1qvr 153 451 81
1qvr 392 89 81
1qvr 296 47 83
1qvr 210 83 81
1qvr 80 237 84
1qvr 178 362 80
1qvr 459 94 84
1qvr 73 415 83
1qvr 264 447 82
1qvr 373 96 86
1qvr 189 236 87
1qvr 119 280 87
1qvr 83 85 88
1qvr 488 192 88
1qvr 310 239 84
1qvr 404 381 87
1qvr 274 33 88
1qvr 364 216 88
1qvr 479 239 88
1qvr 300 155 91
1qvr 265 445 87
1qvr 48 25 94
1qvr 435 181 92
1qvr 101 191 91
1qvr 405 225 92
1qvr 62 93 92
1qvr 463 120 89
1qvr 91 218 92
1qvr 310 238 91
1qvr 300 398 92
1qvr 62 65 93
1qvr 205 284 92
1qvr 483 314 91
1qvr 491 457 92
1qvr 488 346 96
1qvr 402 381 94
1qvr 266 197 95
1qvr 450 358 99
1qvr 264 130 98
1qvr 326 406 97
1qvr 64 94 97
1qvr 467 401 99
1qvr 256 33 98
1qvr 371 114 100
1qvr 398 266 102
1qvr 254 293 104
1qvr 281 49 104
1qvr 111 129 104
1qvr 229 282 102
1qvr 425 215 105
1qvr 256 32 104
1qvr 324 115 103
1qvr 88 262 106
1qvr 40 286 103
1qvr 210 327 105
1qvr 318 380 103
1qvr 312 421 106
1qvr 341 148 104
1qvr 278 439 107
1qvr 408 100 107
1qvr 387 243 110
1qvr 461 260 111
1qvr 63 430 109
1qvr 227 284 108
1qvr 406 34 113
1qvr 335 81 109
1qvr 354 316 112
1qvr 319 378 109
1qvr 84 320 112
1qvr 100 361 111
1qvr 141 32 116
1qvr 407 98 113
1qvr 131 406 119
1qvr 171 181 121
1qvr 166 258 121
1qvr 233 331 121
1qvr 98 362 117
1qvr 379 383 119
1qvr 168 35 120
1qvr 443 54 119
1qvr 317 39 123
1qvr 49 230 122
1qvr 57 485 120
1qvr 119 486 125
1qvr 340 295 126
1qvr 395 276 124
1qvr 445 427 127
1qvr 199 364 130
1qvr 56 482 126
1qvr 239 73 131
1qvr 47 163 131
1qvr 305 437 132
1qvr 166 315 131
1qvr 463 119 132
1qvr 485 208 138
1qvr 483 376 138
1qvr 39 267 136
1qvr 414 453 135
1qvr 166 478 138
1qvr 404 40 136
1qvr 142 60 139
1qvr 408 319 139
1qvr 469 456 142
1qvr 409 151 139
1qvr 175 166 142
1qvr 327 307 140
1qvr 222 313 141
1qvr 389 416 142
1qvr 139 264 141
1qvr 41 230 146
1qvr 236 83 145
1qvr 319 354 144
1qvr 327 464 145
1qvr 404 39 144
1qvr 269 229 148
1qvr 191 138 148
1qvr 50 63 145
1qvr 328 310 146
1qvr 463 318 148
1qvr 311 165 148
1qvr 138 260 147
1qvr 300 106 154
1qvr 479 127 152
1qvr 205 218 154
1qvr 320 358 150
1qvr 469 99 153
1qvr 218 237 153
1qvr 413 336 153
1qvr 433 337 157
1qvr 341 287 159
1qvr 238 299 154
1qvr 181 122 159
1qvr 313 217 156
1qvr 481 321 158
1qvr 128 464 161
1qvr 146 108 159
1qvr 138 360 161
1qvr 483 476 162
1qvr 263 246 164
1qvr 132 323 163
1qvr 388 403 164
1qvr 106 110 164
1qvr 99 273 165
1qvr 295 450 162
1qvr 63 370 166
1qvr 413 350 168
1qvr 343 54 171
1qvr 294 222 170
1qvr 137 261 168
1qvr 338 328 169
1qvr 443 405 171
1qvr 168 439 174
1qvr 171 150 173
1qvr 409 269 172
1qvr 42 344 171
1qvr 319 426 174
1qvr 191 36 176
1qvr 254 330 175
1qvr 407 418 179
1qvr 333 474 177
1qvr 192 208 177
1qvr 411 268 178
3h84 321 42 16
3h84 320 465 16
3h84 391 493 18
3h84 399 354 19
3h84 269 361 18
3h84 141 44 21
3h84 136 178 20
3h84 83 464 21
3h84 467 90 22
3h84 453 95 24
3h84 237 287 23
3h84 364 388 24
3h84 231 105 26
3h84 295 80 27
3h84 346 181 29
3h84 18 440 29
3h84 41 29 30
3h84 110 133 30
3h84 300 410 31
3h84 188 126 32
3h84 130 320 32
3h84 336 370 34
3h84 430 429 36
3h84 272 454 35
3h84 280 72 38
3h84 88 219 36
3h84 336 322 39
3h84 453 293 38
3h84 306 391 40
3h84 244 396 38
3h84 337 141 42
3h84 162 17 42
3h84 244 391 42
3h84 389 24 43
3h84 23 453 42
3h84 77 271 45
3h84 152 332 45
3h84 336 85 45
3h84 18 400 46
3h84 262 132 49
3h84 390 327 46
3h84 412 343 47
3h84 242 418 47
3h84 46 274 50
3h84 35 329 51
3h84 374 25 51
3h84 364 477 52
3h84 269 398 53
3h84 244 417 50
3h84 81 447 51
3h84 490 160 53
3h84 25 266 55
3h84 449 283 52
3h84 79 251 55
3h84 320 106 55
3h84 279 184 56
3h84 375 347 58
3h84 90 297 60
3h84 76 323 62
3h84 99 128 62
3h84 168 328 64
3h84 363 22 64
3h84 335 237 64
3h84 423 261 65
3h84 279 315 65
3h84 114 490 65
3h84 327 26 65
3h84 71 25 67
3h84 209 135 68
3h84 320 179 68
3h84 444 194 68
3h84 90 428 68
3h84 487 98 70
3h84 90 481 72
3h84 486 24 73
3h84 364 357 74
3h84 86 157 75
3h84 228 37 76
3h84 270 244 76
3h84 286 336 75
3h84 322 265 77
3h84 448 79 78
3h84 482 258 81
3h84 343 295 81
3h84 318 383 81
3h84 252 353 82
3h84 413 361 82
3h84 327 492 85
3h84 90 140 86
3h84 495 156 86
3h84 344 491 86
3h84 77 40 89
3h84 383 395 89
3h84 206 29 93
3h84 402 166 93
3h84 78 335 91
3h84 114 379 93
3h84 43 244 92
3h84 86 70 95
3h84 118 65 96
3h84 216 103 96
3h84 143 39 98
3h84 263 83 98
3h84 152 235 102
3h84 35 349 101
3h84 432 73 103
3h84 92 408 104
3h84 144 42 105
3h84 369 451 105
3h84 397 174 108
3h84 359 238 108
3h84 273 237 107
3h84 243 306 109
3h84 27 35 108
3h84 140 317 109
3h84 64 165 112
3h84 415 144 111
3h84 333 357 113
3h84 47 376 110
3h84 360 292 113
3h84 284 300 113
3h84 150 63 114
3h84 437 203 116
3h84 341 216 116
3h84 481 461 116
3h84 330 382 118
3h84 30 482 118
3h84 29 381 119
3h84 124 460 120
3h84 434 140 122
3h84 200 176 121
3h84 29 174 124
3h84 56 421 126
3h84 105 469 126
3h84 405 377 125
3h84 228 382 127
3h84 339 339 127
3h84 478 153 128
3h84 147 310 129
3h84 267 336 130
3h84 377 368 130
3h84 438 246 130
3h84 123 74 130
3h84 211 24 132
3h84 380 285 133
3h84 342 478 134
3h84 319 230 135
3h84 341 334 133
3h84 278 197 134
3h84 263 18 136
3h84 335 50 135
3h84 444 245 137
3h84 242 211 137
3h84 186 255 140
3h84 245 350 140
3h84 281 128 141
3h84 27 360 141
3h84 65 471 138
3h84 188 207 142
3h84 492 23 142
3h84 126 76 143
3h84 131 170 144
3h84 387 247 145
3h84 368 359 145
3h84 347 426 147
3h84 197 118 149
3h84 437 486 149
3h84 392 93 151
3h84 360 314 151
3h84 387 321 152
3h84 417 276 153
3h84 175 438 155
3h84 492 75 157
3h84 375 371 157
3h84 238 251 158
3h84 365 316 156
3h84 318 414 157
3h84 366 230 158
3h84 49 308 159
3h84 405 146 160
3h84 65 146 161
3h84 259 181 161
3h84 208 240 164
3h84 97 92 166
3h84 43 195 165
3h84 266 152 168
3h84 114 340 168
3h84 44 194 168
3h84 226 178 172
3h84 149 95 174
3h84 135 122 174
3h84 207 228 173
3h84 326 248 175
3h84 23 340 177
3h84 232 280 180
3h84 287 331 180
3h84 274 115 179
3h84 418 279 180
3h84 45 246 183
3h84 205 334 183
2cg9 160 40 14
2cg9 109 53 13
2cg9 33 24 15
2cg9 32 441 18
2cg9 331 156 16
2cg9 159 41 16
2cg9 59 355 18
2cg9 342 447 18
2cg9 439 356 18
2cg9 33 21 18
2cg9 351 126 20
2cg9 253 173 22
2cg9 63 32 22
2cg9 449 328 24
2cg9 153 434 25
2cg9 243 254 28
2cg9 22 333 27
2cg9 456 73 28
2cg9 418 108 27
2cg9 256 160 29
2cg9 369 457 32
2cg9 427 232 30
2cg9 387 371 32
2cg9 132 463 33
2cg9 318 20 34
2cg9 446 108 37
2cg9 163 130 35
2cg9 270 181 35
2cg9 111 68 36
2cg9 191 457 36
2cg9 19 485 37
2cg9 31 109 39
2cg9 17 45 40
2cg9 415 303 40
2cg9 470 336 41
2cg9 57 163 44
2cg9 267 88 46
2cg9 241 231 43
2cg9 285 240 44
2cg9 348 410 42
2cg9 424 288 43
2cg9 183 117 45
2cg9 423 196 47
2cg9 71 240 46
2cg9 377 308 46
2cg9 202 392 46
2cg9 181 115 48
2cg9 199 421 49
2cg9 338 48 50
2cg9 272 115 52
2cg9 381 121 50
2cg9 276 366 54
2cg9 100 486 52
2cg9 456 100 54
2cg9 260 46 54
2cg9 306 172 57
2cg9 279 184 55
2cg9 34 348 56
2cg9 203 408 58
2cg9 354 232 57
2cg9 106 359 59
2cg9 25 129 59
2cg9 349 187 60
2cg9 58 94 61
2cg9 208 236 63
2cg9 206 82 64
2cg9 369 291 68
2cg9 207 300 67
2cg9 388 317 67
2cg9 342 20 70
2cg9 72 62 71
2cg9 166 462 69
2cg9 159 105 74
2cg9 430 20 74
2cg9 207 234 73
2cg9 94 218 74
2cg9 288 119 77
2cg9 72 65 76
2cg9 45 478 78
2cg9 35 213 83
2cg9 71 459 84
2cg9 431 301 86
2cg9 41 395 86
2cg9 253 430 84
2cg9 389 223 88
2cg9 61 389 91
2cg9 282 242 90
2cg9 489 213 91
2cg9 264 167 91
2cg9 294 64 93
2cg9 343 134 92
2cg9 137 207 93
2cg9 72 216 93
2cg9 409 256 95
2cg9 488 262 94
2cg9 21 205 96
2cg9 205 247 96
2cg9 150 315 97
2cg9 229 160 97
2cg9 451 458 97
2cg9 468 140 97
2cg9 56 404 98
2cg9 348 463 100
2cg9 376 215 102
2cg9 41 267 101
2cg9 450 168 101
2cg9 213 85 105
2cg9 353 88 104
2cg9 22 455 104
2cg9 359 396 106
2cg9 279 328 106
2cg9 162 443 104
2cg9 185 19 107
2cg9 224 130 106
2cg9 21 157 106
2cg9 79 474 106
2cg9 473 76 108
2cg9 173 196 107
2cg9 15 401 106
2cg9 152 159 111
2cg9 426 461 110
2cg9 257 83 112
2cg9 255 103 110
2cg9 173 196 110
2cg9 262 173 113
2cg9 428 215 113
2cg9 153 379 116
2cg9 428 463 115
2cg9 407 96 117
2cg9 97 445 120
2cg9 144 88 120
2cg9 102 103 120
2cg9 47 210 123
2cg9 298 271 120
2cg9 320 284 122
2cg9 45 332 123
2cg9 189 22 123
2cg9 17 113 123
2cg9 279 417 123
2cg9 257 159 124
2cg9 178 161 125
2cg9 473 203 125
2cg9 190 207 124
2cg9 115 166 125
2cg9 327 466 126
2cg9 351 24 128
2cg9 485 28 129
2cg9 123 125 128
2cg9 396 194 128
2cg9 310 60 129
2cg9 487 173 132
2cg9 351 204 130
2cg9 358 291 131
2cg9 30 422 132
2cg9 281 59 132
2cg9 322 248 133
2cg9 426 419 135
2cg9 376 258 137
2cg9 424 53 139
2cg9 493 71 138
2cg9 346 244 137
2cg9 127 439 137
2cg9 418 256 139
2cg9 482 406 142
2cg9 418 255 142
2cg9 239 290 141
2cg9 443 407 143
2cg9 277 290 145
2cg9 153 324 145
2cg9 171 291 146
2cg9 335 284 146
2cg9 25 331 148
2cg9 310 72 148
2cg9 49 257 149
2cg9 86 52 152
2cg9 495 304 149
2cg9 200 75 150
2cg9 261 16 154
2cg9 56 21 153
2cg9 124 47 153
2cg9 28 287 153
2cg9 43 364 153
2cg9 155 394 153
2cg9 77 380 154
2cg9 402 449 153
2cg9 116 181 154
2cg9 60 72 156
2cg9 49 331 157
2cg9 368 95 157
2cg9 420 154 159
2cg9 110 87 159
2cg9 279 322 159
2cg9 21 107 161
2cg9 216 453 162
2cg9 165 45 163
2cg9 128 72 164
2cg9 365 121 164
2cg9 248 84 167
2cg9 126 128 166
2cg9 329 182 165
2cg9 405 248 164
2cg9 43 195 166
2cg9 465 460 167
2cg9 83 60 169
2cg9 190 290 168
2cg9 487 401 169
2cg9 330 157 171
2cg9 61 417 170
2cg9 300 328 171
2cg9 315 385 171
2cg9 25 142 173
2cg9 21 247 174
2cg9 486 127 173
2cg9 142 216 175
2cg9 63 414 174
2cg9 211 375 177
2cg9 382 494 176
2cg9 80 204 176
2cg9 94 331 177
2cg9 398 292 180
2cg9 480 294 180
2cg9 241 85 181
2cg9 54 165 182
2cg9 407 222 183
2cg9 367 435 184
2cg9 261 240 183
2cg9 449 337 185
2cg9 143 382 188
3qm1 22 173 8
3qm1 460 75 11
3qm1 240 15 12
3qm1 59 23 11
3qm1 413 55 11
3qm1 490 332 12
3qm1 74 20 13
3qm1 412 118 12
3qm1 211 126 15
3qm1 323 484 15
3qm1 466 13 14
3qm1 481 30 15
3qm1 323 292 15
3qm1 179 427 16
3qm1 228 136 17
3qm1 283 323 18
3qm1 458 108 18
3qm1 158 249 19
3qm1 322 92 21
3qm1 266 126 22
3qm1 348 78 22
3qm1 236 420 22
3qm1 146 489 23
3qm1 78 71 24
3qm1 419 374 27
3qm1 99 120 27
3qm1 286 234 27
3qm1 251 415 28
3qm1 96 487 28
3qm1 103 85 30
3qm1 64 304 31
3qm1 350 375 30
3qm1 350 491 30
3qm1 183 169 31
3qm1 466 328 33
3qm1 304 285 33
3qm1 55 84 35
3qm1 138 262 34
3qm1 333 277 34
3qm1 358 214 37
3qm1 268 269 37
3qm1 160 328 38
3qm1 187 62 40
3qm1 208 85 38
3qm1 225 88 39
3qm1 231 158 41
3qm1 230 478 40
3qm1 491 482 40
3qm1 490 303 42
3qm1 100 497 41
3qm1 407 121 43
3qm1 366 86 44
3qm1 47 288 45
3qm1 217 358 46
3qm1 140 95 47
3qm1 138 281 47
3qm1 258 302 47
3qm1 153 263 48
3qm1 337 294 50
3qm1 149 443 50
3qm1 186 266 50
3qm1 473 69 52
3qm1 46 166 53
3qm1 362 170 53
3qm1 422 374 52
3qm1 248 34 53
3qm1 484 51 53
3qm1 187 404 53
3qm1 188 325 54
3qm1 236 35 55
3qm1 332 248 57
3qm1 311 328 56
3qm1 64 234 56
3qm1 316 41 60
3qm1 252 162 60
3qm1 479 12 59
3qm1 155 70 60
3qm1 290 16 63
3qm1 174 32 63
3qm1 296 360 62
3qm1 412 395 63
3qm1 99 147 62
3qm1 188 370 64
3qm1 88 52 65
3qm1 48 138 65
3qm1 158 43 66
3qm1 228 496 66
3qm1 399 359 69
3qm1 470 399 68
3qm1 489 296 70
3qm1 51 408 70
3qm1 411 221 71
3qm1 339 163 72
3qm1 470 233 72
3qm1 279 105 74
3qm1 58 34 74
3qm1 187 132 74
3qm1 172 46 76
3qm1 27 153 75
3qm1 212 398 75
3qm1 256 419 76
3qm1 194 300 78
3qm1 419 158 79
3qm1 292 354 78
3qm1 75 360 80
3qm1 355 99 80
3qm1 367 47 81
3qm1 306 256 80
3qm1 242 267 81
3qm1 79 118 85
3qm1 26 251 84
3qm1 102 39 84
3qm1 70 330 84
3qm1 186 57 86
3qm1 395 71 86
3qm1 469 219 86
3qm1 442 350 86
3qm1 418 332 88
3qm1 315 445 86
3qm1 376 328 90
3qm1 89 422 90
3qm1 64 120 92
3qm1 22 322 90
3qm1 161 500 92
3qm1 299 199 93
3qm1 315 41 94
3qm1 311 310 95
3qm1 318 390 95
3qm1 68 194 95
3qm1 374 354 97
3qm1 434 311 98
3qm1 92 325 99
3qm1 405 495 98
3qm1 64 31 100
3qm1 479 90 98
3qm1 155 345 100
3qm1 298 30 101
3qm1 440 84 103
3qm1 299 143 102
3qm1 212 167 102
3qm1 362 314 102
3qm1 111 333 102
3qm1 227 354 103
3qm1 82 492 105
3qm1 362 41 106
3qm1 324 226 107
3qm1 232 68 108
3qm1 200 400 110
3qm1 363 488 108
3qm1 481 386 110
3qm1 472 502 110
3qm1 495 158 110
3qm1 118 171 112
3qm1 495 326 112
3qm1 112 434 112
3qm1 318 462 114
3qm1 371 471 113
3qm1 91 50 114
3qm1 229 57 114
3qm1 402 75 115
3qm1 302 437 116
3qm1 265 40 116
3qm1 184 218 116
3qm1 134 339 118
3qm1 200 37 119
3qm1 204 289 119
3qm1 288 404 119
3qm1 380 340 121
3qm1 61 365 121
3qm1 251 369 122
3qm1 91 421 122
3qm1 482 134 121
3qm1 228 269 123
3qm1 174 72 123
3qm1 246 124 123
3qm1 391 250 123
3qm1 78 342 123
3qm1 259 52 125
3qm1 114 116 126
3qm1 455 184 124
3qm1 72 308 125
3qm1 184 407 126
3qm1 495 196 128
3qm1 364 148 129
3qm1 400 86 130
3qm1 458 413 132
3qm1 66 450 131
3qm1 467 240 132
3qm1 89 476 132
3qm1 98 21 135
3qm1 66 124 136
3qm1 352 58 136
3qm1 240 134 136
3qm1 397 372 137
3qm1 218 194 138
3qm1 303 195 139
3qm1 500 237 139
3qm1 39 252 139
3qm1 64 426 139
3qm1 196 58 141
3qm1 346 388 142
3qm1 232 489 140
3qm1 120 25 143
3qm1 260 152 142
3qm1 290 212 142
3qm1 431 357 142
3qm1 219 390 144
3qm1 315 13 147
3qm1 198 123 146
3qm1 153 82 148
3qm1 280 347 148
3qm1 267 413 148
3qm1 445 470 148
3qm1 167 70 151
3qm1 187 274 151
3qm1 418 422 152
3qm1 306 439 154
3qm1 52 60 154
3qm1 39 58 156
3qm1 338 108 155
3qm1 239 467 156
3qm1 384 39 157
3qm1 252 54 157
3qm1 496 436 160
3qm1 300 60 159
3qm1 456 374 161
3qm1 189 465 161
3qm1 420 130 163
3qm1 34 47 164
3qm1 423 284 164
3qm1 455 317 165
3qm1 211 208 166
3qm1 28 426 166
3qm1 39 294 167
3qm1 242 461 168
3qm1 368 178 169
3qm1 44 364 168
3qm1 135 382 170
3qm1 55 216 173
3qm1 130 275 172
3qm1 431 442 170
3qm1 211 106 172
3qm1 226 196 174
3qm1 386 148 173
3qm1 392 66 175
3qm1 92 74 176
3qm1 267 217 176
3qm1 388 422 176
3qm1 418 242 178
3qm1 208 438 178
3qm1 206 57 179
3qm1 203 74 178
3qm1 144 180 180
3qm1 179 485 179
3qm1 272 286 181
3qm1 438 306 182
3qm1 229 435 183
3qm1 147 280 184
3qm1 435 379 184
3qm1 239 392 184
3qm1 233 75 185
3qm1 22 388 186
3qm1 349 76 188
3qm1 305 138 187
3qm1 81 436 188
3qm1 217 55 190
3qm1 123 493 188
3gl1 110 345 8
3gl1 59 23 10
3gl1 124 60 11
3gl1 284 416 15
3gl1 466 450 14
3gl1 152 482 14
3gl1 252 458 17
3gl1 13 117 20
3gl1 501 315 21
3gl1 418 166 21
3gl1 434 296 22
3gl1 316 155 24
3gl1 315 300 24
3gl1 429 125 25
3gl1 305 331 26
3gl1 185 265 28
3gl1 454 54 28
3gl1 485 63 33
3gl1 402 65 33
3gl1 121 257 32
3gl1 119 427 32
3gl1 148 26 34
3gl1 119 401 34
3gl1 386 434 34
3gl1 416 170 35
3gl1 465 466 34
3gl1 300 266 36
3gl1 297 70 36
3gl1 73 427 37
3gl1 440 275 37
3gl1 30 347 39
3gl1 96 160 39
3gl1 472 142 41
3gl1 91 266 40
3gl1 366 85 42
3gl1 287 262 41
3gl1 291 208 43
3gl1 254 75 43
3gl1 76 124 44
3gl1 291 378 44
3gl1 120 414 46
3gl1 222 329 48
3gl1 204 336 48
3gl1 62 87 50
3gl1 238 490 51
3gl1 413 25 52
3gl1 248 77 52
3gl1 458 440 52
3gl1 402 383 54
3gl1 344 448 54
3gl1 188 325 55
3gl1 274 409 55
3gl1 123 192 57
3gl1 186 114 58
3gl1 124 77 61
3gl1 35 315 61
3gl1 157 481 61
3gl1 398 340 64
3gl1 240 235 63
3gl1 102 43 64
3gl1 421 210 63
3gl1 61 113 66
3gl1 14 228 65
3gl1 289 142 66
3gl1 165 156 66
3gl1 43 273 67
3gl1 497 393 65
3gl1 171 123 67
3gl1 459 242 70
3gl1 13 115 70
3gl1 26 124 72
3gl1 157 258 76
3gl1 342 267 75
3gl1 356 54 77
3gl1 24 229 77
3gl1 339 203 77
3gl1 239 234 77
3gl1 399 305 80
3gl1 100 428 79
3gl1 326 302 83
3gl1 261 236 83
3gl1 70 330 83
3gl1 186 386 84
3gl1 169 123 87
3gl1 26 432 86
3gl1 219 132 87
3gl1 101 40 87
3gl1 291 264 89
3gl1 250 44 89
3gl1 432 209 90
3gl1 53 106 91
3gl1 343 367 91
3gl1 388 409 91
3gl1 315 205 95
3gl1 476 433 96
3gl1 379 258 100
3gl1 282 457 98
3gl1 144 497 99
3gl1 298 465 100
3gl1 196 164 101
3gl1 90 184 102
3gl1 144 360 101
3gl1 414 481 103
3gl1 413 20 105
3gl1 437 458 106
3gl1 142 185 106
3gl1 372 26 109
3gl1 254 60 109
3gl1 232 69 110
3gl1 48 153 111
3gl1 105 289 112
3gl1 346 407 111
3gl1 94 32 115
3gl1 238 462 114
3gl1 237 179 116
3gl1 289 210 117
3gl1 166 89 118
3gl1 412 274 119
3gl1 484 495 118
3gl1 441 129 121
3gl1 426 448 121
3gl1 492 458 121
3gl1 54 106 124
3gl1 379 341 124
3gl1 54 55 127
3gl1 232 122 128
3gl1 213 332 128
3gl1 398 460 128
3gl1 155 17 132
3gl1 91 410 132
3gl1 324 212 133
3gl1 298 467 132
3gl1 88 476 133
3gl1 169 13 136
3gl1 476 442 139
3gl1 15 195 140
3gl1 64 207 141
3gl1 32 347 142
3gl1 190 450 141
3gl1 333 397 144
3gl1 138 152 145
3gl1 492 327 145
3gl1 370 154 146
3gl1 49 282 148
3gl1 156 309 148
3gl1 229 332 148
3gl1 141 383 148
3gl1 30 497 149
3gl1 29 130 149
3gl1 431 247 150
3gl1 368 433 149
3gl1 419 393 150
3gl1 62 297 152
3gl1 59 284 153
3gl1 311 19 155
3gl1 173 390 154
3gl1 373 464 155
3gl1 69 247 156
3gl1 300 60 160
3gl1 54 220 160
3gl1 316 249 161
3gl1 440 396 160
3gl1 404 468 162
3gl1 435 251 164
3gl1 84 206 165
3gl1 433 370 164
3gl1 243 383 167
3gl1 328 277 167
3gl1 423 452 167
3gl1 411 460 166
3gl1 468 28 168
3gl1 458 86 168
3gl1 422 227 168
3gl1 203 384 170
3gl1 115 481 168
3gl1 319 105 171
3gl1 425 44 172
3gl1 441 127 171
3gl1 271 334 173
3gl1 498 348 172
3gl1 281 452 174
3gl1 11 376 173
3gl1 254 72 175
3gl1 234 332 175
3gl1 428 327 175
3gl1 104 198 176
3gl1 276 133 178
3gl1 266 466 179
3gl1 86 48 178
3gl1 203 74 179
3gl1 180 464 178
3gl1 458 279 180
3gl1 250 61 181
3gl1 298 379 181
3gl1 335 271 183
3gl1 420 433 182
3gl1 34 137 184
3gl1 306 121 184
3gl1 430 390 185
3gl1 443 441 185
3gl1 368 242 187
3d2f 80 186 16
3d2f 354 417 19
3d2f 53 421 20
3d2f 466 481 19
3d2f 471 463 21
3d2f 421 93 22
3d2f 160 268 21
3d2f 224 125 24
3d2f 314 300 25
3d2f 287 21 25
3d2f 479 91 29
3d2f 88 365 27
3d2f 54 75 28
3d2f 461 375 29
3d2f 405 445 30
3d2f 310 302 29
3d2f 354 134 33
3d2f 140 221 33
3d2f 163 44 35
3d2f 476 94 36
3d2f 342 295 36
3d2f 186 85 36
3d2f 145 220 39
3d2f 203 168 40
3d2f 124 77 45
3d2f 135 110 40
3d2f 409 147 40
3d2f 236 125 42
3d2f 184 157 44
3d2f 85 210 44
3d2f 35 156 44
3d2f 115 308 45
3d2f 342 165 48
3d2f 89 428 47
3d2f 475 126 50
3d2f 27 183 48
3d2f 384 283 53
3d2f 455 380 53
3d2f 71 70 52
3d2f 365 77 54
3d2f 123 192 57
3d2f 104 213 57
3d2f 299 232 55
3d2f 440 369 56
3d2f 448 176 58
3d2f 152 74 58
3d2f 20 44 59
3d2f 87 413 59
3d2f 434 494 59
3d2f 123 78 61
3d2f 469 413 61
3d2f 439 296 61
3d2f 420 211 63
3d2f 157 484 67
3d2f 373 43 66
3d2f 320 195 64
3d2f 385 474 64
3d2f 286 194 65
3d2f 126 62 68
3d2f 402 327 70
3d2f 206 249 71
3d2f 487 324 72
3d2f 469 382 72
3d2f 157 261 78
3d2f 312 354 77
3d2f 113 362 80
3d2f 344 492 77
3d2f 344 86 77
3d2f 335 244 80
3d2f 209 340 79
3d2f 92 342 80
3d2f 489 362 81
3d2f 328 275 80
3d2f 492 458 84
3d2f 102 424 83
3d2f 343 491 84
3d2f 328 275 87
3d2f 88 341 86
3d2f 367 461 89
3d2f 99 77 88
3d2f 91 460 94
3d2f 22 72 89
3d2f 252 76 91
3d2f 327 221 89
3d2f 471 176 91
3d2f 135 456 91
3d2f 268 429 93
3d2f 279 210 92
3d2f 410 302 93
3d2f 101 77 94
3d2f 391 24 93
3d2f 139 454 96
3d2f 252 75 98
3d2f 437 180 96
3d2f 471 172 99
3d2f 121 369 101
3d2f 244 148 102
3d2f 392 358 100
3d2f 351 245 102
3d2f 163 84 103
3d2f 195 283 105
3d2f 387 19 108
3d2f 200 422 109
3d2f 372 26 109
3d2f 360 360 109
3d2f 128 327 111
3d2f 154 104 112
3d2f 360 359 112
3d2f 84 248 114
3d2f 476 439 115
3d2f 386 100 119
3d2f 322 306 116
3d2f 298 455 117
3d2f 24 321 118
3d2f 288 332 121
3d2f 179 405 119
3d2f 103 80 121
3d2f 59 96 123
3d2f 302 456 121
3d2f 215 474 126
3d2f 298 490 124
3d2f 479 153 126
3d2f 27 443 127
3d2f 35 60 128
3d2f 304 26 130
3d2f 311 202 129
3d2f 89 246 133
3d2f 372 397 131
3d2f 474 154 131
3d2f 142 376 135
3d2f 44 25 135
3d2f 252 478 136
3d2f 299 70 137
3d2f 101 98 136
3d2f 138 146 139
3d2f 112 116 141
3d2f 176 66 144
3d2f 395 263 142
3d2f 131 170 145
3d2f 110 226 147
3d2f 174 234 146
3d2f 264 265 145
3d2f 493 424 147
3d2f 423 222 148
3d2f 218 269 151
3d2f 139 85 150
3d2f 400 204 152
3d2f 140 216 155
3d2f 491 423 150
3d2f 39 115 153
3d2f 479 251 152
3d2f 363 340 153
3d2f 141 88 155
3d2f 142 443 155
3d2f 20 130 156
3d2f 455 338 158
3d2f 110 297 160
3d2f 492 75 157
3d2f 476 216 161
3d2f 199 191 160
3d2f 368 484 163
3d2f 356 452 164
3d2f 438 392 164
3d2f 143 39 166
3d2f 439 154 168
3d2f 44 417 169
3d2f 390 308 168
3d2f 491 304 170
3d2f 359 447 169
3d2f 124 310 172
3d2f 197 397 172
3d2f 184 420 171
3d2f 384 95 175
3d2f 34 101 174
3d2f 385 132 175
3d2f 192 207 177
3d2f 70 473 176
3d2f 455 185 179
3d2f 85 187 179
3d2f 175 488 180
3d2f 454 151 181
3d2f 104 492 180
4d8q 183 445 18
4d8q 353 31 19
4d8q 467 339 19
4d8q 217 205 21
4d8q 34 304 20
4d8q 274 425 22
4d8q 199 222 22
4d8q 409 225 21
4d8q 471 416 22
4d8q 449 392 24
4d8q 135 239 26
4d8q 259 139 28
4d8q 146 450 26
4d8q 68 320 28
4d8q 255 383 30
4d8q 436 342 30
4d8q 175 332 30
4d8q 116 473 31
4d8q 92 71 33
4d8q 271 218 32
4d8q 176 395 32
4d8q 118 450 32
4d8q 154 79 33
4d8q 265 118 35
4d8q 209 234 34
4d8q 270 353 35
4d8q 297 362 34
4d8q 270 43 37
4d8q 120 50 36
4d8q 427 232 36
4d8q 347 269 37
4d8q 56 406 40
4d8q 112 163 42
4d8q 22 282 41
4d8q 268 333 41
4d8q 47 233 43
4d8q 34 389 42
4d8q 380 69 41
4d8q 217 111 42
4d8q 346 244 42
4d8q 196 283 43
4d8q 162 293 46
4d8q 309 208 45
4d8q 60 336 45
4d8q 492 208 47
4d8q 286 87 47
4d8q 282 277 49
4d8q 349 211 49
4d8q 127 19 52
4d8q 328 30 50
4d8q 285 349 51
4d8q 42 203 52
4d8q 167 83 54
4d8q 143 299 54
4d8q 329 218 55
4d8q 163 397 55
4d8q 126 49 56
4d8q 399 94 57
4d8q 59 492 57
4d8q 64 464 57
4d8q 40 100 59
4d8q 102 422 58
4d8q 84 32 59
4d8q 374 102 62
4d8q 203 358 61
4d8q 192 384 62
4d8q 131 278 63
4d8q 476 266 64
4d8q 354 309 65
4d8q 385 449 65
4d8q 235 52 66
4d8q 488 372 67
4d8q 461 70 67
4d8q 406 140 68
4d8q 361 214 68
4d8q 395 230 69
4d8q 67 301 69
4d8q 473 348 70
4d8q 206 23 69
4d8q 388 255 69
4d8q 280 300 71
4d8q 74 204 71
4d8q 267 374 71
4d8q 103 331 73
4d8q 341 223 72
4d8q 442 362 74
4d8q 231 295 75
4d8q 157 28 75
4d8q 124 486 77
4d8q 427 82 76
4d8q 114 404 78
4d8q 419 409 79
4d8q 397 113 81
4d8q 323 151 82
4d8q 383 296 82
4d8q 45 303 81
4d8q 145 386 82
4d8q 370 485 81
4d8q 413 97 83
4d8q 213 255 85
4d8q 98 386 86
4d8q 194 161 86
4d8q 157 228 87
4d8q 66 155 89
4d8q 101 295 89
4d8q 474 37 90
4d8q 337 170 89
4d8q 228 178 90
4d8q 309 107 91
4d8q 278 480 92
4d8q 121 42 92
4d8q 334 430 93
4d8q 193 467 94
4d8q 441 28 94
4d8q 370 429 96
4d8q 179 453 98
4d8q 136 128 97
4d8q 449 336 98
4d8q 485 486 100
4d8q 339 41 98
4d8q 152 379 100
4d8q 224 404 100
4d8q 273 264 103
4d8q 302 89 102
4d8q 58 327 106
4d8q 238 487 107
4d8q 466 193 107
4d8q 275 82 109
4d8q 106 271 109
4d8q 387 141 109
4d8q 405 446 111
4d8q 436 318 113
4d8q 352 436 112
4d8q 462 470 114
4d8q 216 150 114
4d8q 219 184 114
4d8q 310 321 114
4d8q 168 336 112
4d8q 317 257 114
4d8q 260 447 115
4d8q 136 448 115
4d8q 487 105 117
4d8q 479 168 115
4d8q 356 48 118
4d8q 236 232 118
4d8q 113 344 118
4d8q 424 41 120
4d8q 455 369 119
4d8q 63 76 120
4d8q 178 359 119
4d8q 290 357 122
4d8q 101 228 123
4d8q 26 265 122
4d8q 357 416 123
4d8q 359 464 122
4d8q 309 342 123
4d8q 184 460 126
4d8q 330 176 127
4d8q 297 271 126
4d8q 305 174 127
4d8q 376 28 130
4d8q 273 443 130
4d8q 391 146 130
4d8q 180 289 131
4d8q 394 345 130
4d8q 127 440 132
4d8q 65 42 132
4d8q 132 106 134
4d8q 162 278 135
4d8q 229 401 136
4d8q 302 299 135
4d8q 73 373 137
4d8q 261 181 139
4d8q 374 446 139
4d8q 277 37 139
4d8q 458 44 138
4d8q 190 391 140
4d8q 83 39 141
4d8q 346 215 140
4d8q 228 109 141
4d8q 351 175 142
4d8q 276 249 141
4d8q 157 245 142
4d8q 298 348 142
4d8q 154 205 143
4d8q 322 439 145
4d8q 162 53 145
4d8q 381 133 144
4d8q 461 151 144
4d8q 76 138 147
4d8q 480 47 147
4d8q 324 108 146
4d8q 219 483 146
4d8q 215 32 148
4d8q 150 413 149
4d8q 307 392 150
4d8q 432 430 148
4d8q 289 70 152
4d8q 332 416 150
4d8q 181 45 152
4d8q 77 85 152
4d8q 108 312 152
4d8q 67 489 153
4d8q 382 165 154
4d8q 59 421 155
4d8q 340 140 155
4d8q 205 258 157
4d8q 315 267 157
4d8q 347 396 158
4d8q 293 362 158
4d8q 56 126 161
4d8q 449 208 162
4d8q 343 223 163
4d8q 225 41 165
4d8q 281 44 166
4d8q 427 185 167
4d8q 388 194 166
4d8q 63 101 167
4d8q 108 376 170
4d8q 70 262 172
4d8q 156 375 172
4d8q 191 260 174
4d8q 159 277 174
4d8q 215 468 173
4d8q 85 136 174
4d8q 329 197 174
4d8q 235 210 175
4d8q 378 275 175
4d8q 57 304 175
4d8q 258 483 177
4d8q 457 39 177
4d8q 123 224 177
4d8q 348 110 177
4d8q 185 123 180
4d8q 467 125 179
4d8q 31 372 179
4d8q 411 475 178
4d8q 429 89 181
4d8q 487 127 180
4d8q 301 254 181
1bxn 110 344 12
1bxn 288 301 13
1bxn 491 92 12
1bxn 124 276 14
1bxn 34 139 15
1bxn 430 255 13
1bxn 167 165 16
1bxn 442 232 16
1bxn 325 403 17
1bxn 173 77 18
1bxn 62 448 19
1bxn 491 92 17
1bxn 464 237 20
1bxn 430 255 17
1bxn 31 364 19
1bxn 321 365 20
1bxn 424 446 20
1bxn 335 303 20
1bxn 275 395 20
1bxn 191 469 21
1bxn 288 44 22
1bxn 217 153 22
1bxn 231 401 22
1bxn 198 314 22
1bxn 128 374 23
1bxn 410 56 24
1bxn 371 164 23
1bxn 258 255 24
1bxn 395 136 25
1bxn 428 184 23
1bxn 305 141 27
1bxn 351 338 26
1bxn 380 405 27
1bxn 478 200 28
1bxn 209 50 28
1bxn 206 118 28
1bxn 198 314 26
1bxn 488 427 29
1bxn 292 486 28
1bxn 473 496 29
1bxn 428 184 27
1bxn 259 478 30
1bxn 114 371 31
1bxn 99 392 31
1bxn 287 433 33
1bxn 369 49 33
1bxn 79 147 37
1bxn 479 170 37
1bxn 88 125 38
1bxn 258 453 37
1bxn 173 457 42
1bxn 72 17 42
1bxn 138 137 43
1bxn 424 288 44
1bxn 402 365 44
1bxn 481 383 45
1bxn 258 454 41
1bxn 372 382 45
1bxn 277 136 46
1bxn 359 424 47
1bxn 145 354 48
1bxn 443 408 48
1bxn 366 441 50
1bxn 123 135 51
1bxn 217 85 53
1bxn 86 236 52
1bxn 494 122 53
1bxn 299 253 53
1bxn 323 466 53
1bxn 494 38 55
1bxn 283 453 54
1bxn 156 493 54
1bxn 51 445 58
1bxn 316 479 58
1bxn 213 103 60
1bxn 482 465 60
1bxn 489 144 61
1bxn 19 338 60
1bxn 253 341 60
1bxn 491 276 63
1bxn 373 414 63
1bxn 456 314 64
1bxn 469 286 66
1bxn 223 260 66
1bxn 149 348 65
1bxn 442 109 66
1bxn 302 165 69
1bxn 352 392 71
1bxn 342 267 70
1bxn 72 342 71
1bxn 271 70 72
1bxn 36 201 73
1bxn 451 280 72
1bxn 260 36 73
1bxn 66 385 75
1bxn 301 462 75
1bxn 208 54 76
1bxn 373 322 76
1bxn 497 68 79
1bxn 255 327 78
1bxn 429 318 79
1bxn 469 440 79
1bxn 221 224 81
1bxn 233 109 82
1bxn 49 72 83
1bxn 291 227 83
1bxn 360 339 83
1bxn 302 494 84
1bxn 32 58 85
1bxn 258 106 86
1bxn 479 128 85
1bxn 192 133 88
1bxn 171 212 88
1bxn 82 185 87
1bxn 92 311 89
1bxn 47 410 88
1bxn 467 344 89
1bxn 14 105 91
1bxn 464 158 90
1bxn 464 254 90
1bxn 309 465 92
1bxn 450 486 92
1bxn 162 256 93
1bxn 271 336 94
1bxn 196 366 92
1bxn 27 24 94
1bxn 95 105 95
1bxn 397 288 94
1bxn 176 46 96
1bxn 84 149 98
1bxn 123 156 98
1bxn 351 63 100
1bxn 182 129 100
1bxn 54 201 99
1bxn 402 202 102
1bxn 254 425 102
1bxn 104 20 103
1bxn 395 484 103
1bxn 181 494 105
1bxn 461 98 105
1bxn 251 399 104
1bxn 15 400 106
1bxn 489 15 107
1bxn 286 495 108
1bxn 70 115 108
1bxn 63 133 108
1bxn 29 431 108
1bxn 136 145 108
1bxn 160 317 109
1bxn 356 183 110
1bxn 469 321 111
1bxn 247 190 110
1bxn 256 19 114
1bxn 73 455 114
1bxn 350 382 115
1bxn 247 189 114
1bxn 258 251 117
1bxn 322 409 116
1bxn 383 402 117
1bxn 372 439 117
1bxn 138 498 119
1bxn 26 47 120
1bxn 199 82 120
1bxn 376 215 119
1bxn 187 255 120
1bxn 260 401 121
1bxn 415 481 122
1bxn 21 190 123
1bxn 448 494 123
1bxn 271 229 124
1bxn 363 275 123
1bxn 148 467 126
1bxn 187 336 126
1bxn 229 479 128
1bxn 464 228 127
1bxn 79 445 128
1bxn 196 101 129
1bxn 347 149 131
1bxn 362 350 130
1bxn 450 15 133
1bxn 247 39 132
1bxn 228 285 131
1bxn 97 174 134
1bxn 39 300 134
1bxn 145 442 134
1bxn 366 499 134
1bxn 36 102 135
1bxn 145 284 135
1bxn 256 123 137
1bxn 433 169 139
1bxn 171 455 138
1bxn 59 88 139
1bxn 47 343 141
1bxn 284 397 139
1bxn 207 112 140
1bxn 421 34 143
1bxn 46 316 143
1bxn 291 445 146
1bxn 330 175 146
1bxn 256 442 147
1bxn 200 75 147
1bxn 340 250 149
1bxn 440 264 151
1bxn 250 267 152
1bxn 433 136 156
1bxn 365 280 154
1bxn 275 475 154
1bxn 493 487 155
1bxn 200 75 152
1bxn 263 87 155
1bxn 483 181 155
1bxn 83 441 157
1bxn 251 216 157
1bxn 258 284 159
1bxn 415 78 160
1bxn 385 110 160
1bxn 280 274 160
1bxn 485 145 161
1bxn 118 252 162
1bxn 76 217 162
1bxn 474 381 168
1bxn 113 457 167
1bxn 214 497 169
1bxn 306 180 170
1bxn 171 329 170
1bxn 115 18 171
1bxn 263 443 171
1bxn 472 155 173
1bxn 488 365 173
1bxn 406 40 174
1bxn 65 496 175
1bxn 157 170 176
1bxn 104 33 178
1bxn 39 120 178
1bxn 138 144 177
1bxn 16 170 179
1bxn 116 261 178
1bxn 37 221 179
1bxn 285 425 180
1bxn 274 163 181
1bxn 492 236 181
1bxn 415 159 182
1bxn 312 474 181
1bxn 149 497 182
1bxn 480 57 184
1bxn 291 109 183
1bxn 218 402 184
1bxn 405 87 186
1bxn 442 220 185
1bxn 196 281 185
1bxn 143 417 186
